#ifndef MODEL_DATA_H
#define MODEL_DATA_H
#include <cstdint>
alignas(16) const unsigned char model_tflite[] = {
    0x20, 0x00, 0x00, 0x00, 0x54, 0x46, 0x4c, 0x33, 0x00, 0x00, 0x00, 0x00,
    0x14, 0x00, 0x20, 0x00, 0x1c, 0x00, 0x18, 0x00, 0x14, 0x00, 0x10, 0x00,
    0x0c, 0x00, 0x00, 0x00, 0x08, 0x00, 0x04, 0x00, 0x14, 0x00, 0x00, 0x00,
    0x1c, 0x00, 0x00, 0x00, 0x8c, 0x00, 0x00, 0x00, 0xe4, 0x00, 0x00, 0x00,
    0x60, 0x0e, 0x00, 0x00, 0x70, 0x0e, 0x00, 0x00, 0xb0, 0x19, 0x00, 0x00,
    0x03, 0x00, 0x00, 0x00, 0x01, 0x00, 0x00, 0x00, 0x04, 0x00, 0x00, 0x00,
    0x52, 0xf1, 0xff, 0xff, 0x0c, 0x00, 0x00, 0x00, 0x1c, 0x00, 0x00, 0x00,
    0x3c, 0x00, 0x00, 0x00, 0x0f, 0x00, 0x00, 0x00, 0x73, 0x65, 0x72, 0x76,
    0x69, 0x6e, 0x67, 0x5f, 0x64, 0x65, 0x66, 0x61, 0x75, 0x6c, 0x74, 0x00,
    0x01, 0x00, 0x00, 0x00, 0x04, 0x00, 0x00, 0x00, 0x90, 0xff, 0xff, 0xff,
    0x0a, 0x00, 0x00, 0x00, 0x04, 0x00, 0x00, 0x00, 0x08, 0x00, 0x00, 0x00,
    0x6f, 0x75, 0x74, 0x70, 0x75, 0x74, 0x5f, 0x30, 0x00, 0x00, 0x00, 0x00,
    0x01, 0x00, 0x00, 0x00, 0x04, 0x00, 0x00, 0x00, 0x26, 0xf2, 0xff, 0xff,
    0x04, 0x00, 0x00, 0x00, 0x0f, 0x00, 0x00, 0x00, 0x6b, 0x65, 0x72, 0x61,
    0x73, 0x5f, 0x74, 0x65, 0x6e, 0x73, 0x6f, 0x72, 0x5f, 0x31, 0x35, 0x00,
    0x02, 0x00, 0x00, 0x00, 0x34, 0x00, 0x00, 0x00, 0x04, 0x00, 0x00, 0x00,
    0xdc, 0xff, 0xff, 0xff, 0x0d, 0x00, 0x00, 0x00, 0x04, 0x00, 0x00, 0x00,
    0x13, 0x00, 0x00, 0x00, 0x43, 0x4f, 0x4e, 0x56, 0x45, 0x52, 0x53, 0x49,
    0x4f, 0x4e, 0x5f, 0x4d, 0x45, 0x54, 0x41, 0x44, 0x41, 0x54, 0x41, 0x00,
    0x08, 0x00, 0x0c, 0x00, 0x08, 0x00, 0x04, 0x00, 0x08, 0x00, 0x00, 0x00,
    0x0c, 0x00, 0x00, 0x00, 0x04, 0x00, 0x00, 0x00, 0x13, 0x00, 0x00, 0x00,
    0x6d, 0x69, 0x6e, 0x5f, 0x72, 0x75, 0x6e, 0x74, 0x69, 0x6d, 0x65, 0x5f,
    0x76, 0x65, 0x72, 0x73, 0x69, 0x6f, 0x6e, 0x00, 0x0e, 0x00, 0x00, 0x00,
    0x78, 0x0d, 0x00, 0x00, 0x70, 0x0d, 0x00, 0x00, 0x5c, 0x0d, 0x00, 0x00,
    0x34, 0x0d, 0x00, 0x00, 0xe4, 0x0c, 0x00, 0x00, 0xd4, 0x0a, 0x00, 0x00,
    0x44, 0x0a, 0x00, 0x00, 0xb4, 0x00, 0x00, 0x00, 0xac, 0x00, 0x00, 0x00,
    0xa4, 0x00, 0x00, 0x00, 0x9c, 0x00, 0x00, 0x00, 0x94, 0x00, 0x00, 0x00,
    0x74, 0x00, 0x00, 0x00, 0x04, 0x00, 0x00, 0x00, 0xda, 0xf2, 0xff, 0xff,
    0x04, 0x00, 0x00, 0x00, 0x60, 0x00, 0x00, 0x00, 0x0c, 0x00, 0x00, 0x00,
    0x08, 0x00, 0x0e, 0x00, 0x08, 0x00, 0x04, 0x00, 0x08, 0x00, 0x00, 0x00,
    0x10, 0x00, 0x00, 0x00, 0x28, 0x00, 0x00, 0x00, 0x00, 0x00, 0x06, 0x00,
    0x08, 0x00, 0x04, 0x00, 0x06, 0x00, 0x00, 0x00, 0x04, 0x00, 0x00, 0x00,
    0x01, 0x00, 0x00, 0x00, 0xeb, 0x03, 0x00, 0x00, 0x0c, 0x00, 0x18, 0x00,
    0x14, 0x00, 0x10, 0x00, 0x0c, 0x00, 0x04, 0x00, 0x0c, 0x00, 0x00, 0x00,
    0xa6, 0xec, 0x51, 0xef, 0x33, 0x0b, 0x12, 0x09, 0x02, 0x00, 0x00, 0x00,
    0x02, 0x00, 0x00, 0x00, 0x04, 0x00, 0x00, 0x00, 0x06, 0x00, 0x00, 0x00,
    0x32, 0x2e, 0x32, 0x30, 0x2e, 0x30, 0x00, 0x00, 0x46, 0xf3, 0xff, 0xff,
    0x04, 0x00, 0x00, 0x00, 0x10, 0x00, 0x00, 0x00, 0x31, 0x2e, 0x31, 0x34,
    0x2e, 0x30, 0x00, 0x00, 0x00, 0x00, 0x00, 0x00, 0x00, 0x00, 0x00, 0x00,
    0xa0, 0xf2, 0xff, 0xff, 0xa4, 0xf2, 0xff, 0xff, 0xa8, 0xf2, 0xff, 0xff,
    0xac, 0xf2, 0xff, 0xff, 0x72, 0xf3, 0xff, 0xff, 0x04, 0x00, 0x00, 0x00,
    0x80, 0x09, 0x00, 0x00, 0xd0, 0xf8, 0xf8, 0xf5, 0xfc, 0x1e, 0x07, 0x0a,
    0xf9, 0xee, 0x0c, 0x03, 0x2b, 0xeb, 0xf5, 0xfb, 0x11, 0x14, 0x37, 0xe4,
    0x27, 0x09, 0xf9, 0xcd, 0xfb, 0xf5, 0xe2, 0xd1, 0xe5, 0x26, 0xff, 0xfc,
    0xd3, 0x00, 0x04, 0xf4, 0x17, 0x09, 0x07, 0xfb, 0x25, 0x09, 0x27, 0x06,
    0x0e, 0xf6, 0x06, 0x02, 0x09, 0x06, 0x07, 0x14, 0x0b, 0x21, 0x05, 0xef,
    0xde, 0xec, 0x28, 0xfc, 0xcb, 0xf7, 0xf3, 0xfc, 0x88, 0x81, 0x08, 0x0d,
    0x9f, 0x14, 0x08, 0xf1, 0xd4, 0x8c, 0xef, 0x0e, 0x1d, 0x26, 0xdb, 0xfd,
    0xf8, 0x3a, 0x0f, 0x45, 0x1a, 0xec, 0x27, 0xfc, 0xee, 0xfc, 0x10, 0x18,
    0x1e, 0x0a, 0xe3, 0xe1, 0xdb, 0xfc, 0x12, 0x1e, 0x0a, 0xee, 0xf0, 0xfc,
    0x07, 0x1a, 0x1d, 0x1c, 0x2c, 0xfb, 0xde, 0xf1, 0x07, 0x13, 0xff, 0x07,
    0x2e, 0xfb, 0x0a, 0xe7, 0xfe, 0x0e, 0x04, 0xdc, 0x16, 0xee, 0xf6, 0xf3,
    0xe9, 0x1c, 0x12, 0xf2, 0x13, 0xe7, 0xf5, 0xef, 0xe0, 0xf4, 0x10, 0xf8,
    0x81, 0xd6, 0xec, 0xf6, 0xb2, 0xf7, 0xcb, 0xfb, 0x17, 0xf6, 0x2c, 0xe9,
    0x02, 0x06, 0x12, 0xff, 0xf9, 0x02, 0x0a, 0xec, 0xf2, 0x0d, 0x10, 0x13,
    0xf8, 0x3f, 0x18, 0x06, 0x12, 0xff, 0xee, 0x15, 0x1b, 0x25, 0x24, 0x02,
    0x01, 0xf6, 0xe7, 0x05, 0x42, 0x15, 0x0a, 0xfe, 0xbe, 0xd5, 0xf2, 0x15,
    0x29, 0x30, 0xfd, 0xf6, 0xda, 0xeb, 0xf4, 0x1c, 0x17, 0x0d, 0x08, 0x0b,
    0xf4, 0xe5, 0x02, 0x29, 0x09, 0xfe, 0x0a, 0x12, 0x00, 0x03, 0xf7, 0x0b,
    0x08, 0xf8, 0x0d, 0xfa, 0xfe, 0x24, 0x08, 0x08, 0x7f, 0xff, 0xf4, 0x2d,
    0xf8, 0x1d, 0xe5, 0x08, 0xf5, 0xe8, 0x16, 0x1a, 0x22, 0x26, 0x3d, 0x1b,
    0xce, 0x09, 0xee, 0x7b, 0x0a, 0x7f, 0x26, 0xe9, 0x02, 0x10, 0xeb, 0xdf,
    0xdc, 0x15, 0x5f, 0x11, 0x17, 0xef, 0x04, 0xde, 0x22, 0x58, 0x05, 0x17,
    0xe5, 0x04, 0xd2, 0x28, 0x0a, 0x0d, 0xf1, 0x07, 0x29, 0xf6, 0x01, 0x34,
    0x0f, 0xd2, 0xf5, 0x1b, 0xf7, 0x48, 0x09, 0xe9, 0xf6, 0xec, 0x34, 0xb2,
    0xf8, 0xf6, 0x07, 0x1d, 0xdc, 0x11, 0x37, 0xfa, 0x08, 0xea, 0xdc, 0xf9,
    0xf1, 0x36, 0xf5, 0x02, 0xfa, 0x18, 0xf7, 0x22, 0xb3, 0x0f, 0xd6, 0x03,
    0xe8, 0xc5, 0xc3, 0xe7, 0xf6, 0x2e, 0xf1, 0xf2, 0xf1, 0xe9, 0xa1, 0xe7,
    0xf6, 0x02, 0x30, 0x1b, 0xea, 0xe9, 0x81, 0xf2, 0xde, 0x2c, 0x32, 0x0e,
    0x18, 0xe4, 0xdc, 0xe9, 0xe3, 0x36, 0x1e, 0x14, 0x20, 0x1d, 0x07, 0xfd,
    0xfb, 0x38, 0xf9, 0x07, 0x11, 0x41, 0x17, 0x0a, 0x14, 0x42, 0xf1, 0xda,
    0x07, 0x12, 0x0b, 0xfd, 0x16, 0x07, 0xf3, 0xba, 0xfb, 0x14, 0x03, 0x09,
    0x0e, 0x30, 0xfd, 0x3b, 0x78, 0x08, 0xf8, 0x4d, 0xe8, 0x6a, 0xee, 0xf6,
    0x1c, 0x06, 0xf1, 0xeb, 0xfd, 0x35, 0x2f, 0x1c, 0x03, 0xdb, 0xfa, 0xfa,
    0xe9, 0xfe, 0xff, 0x1d, 0x10, 0x07, 0xfa, 0xf4, 0xd1, 0xe1, 0xf6, 0x00,
    0x15, 0xe0, 0xfb, 0x03, 0xf9, 0xf9, 0x00, 0x09, 0x1c, 0xfc, 0x02, 0xfa,
    0x0c, 0xeb, 0xf7, 0xfc, 0x2c, 0x11, 0xef, 0xe6, 0x00, 0xf4, 0xee, 0x0c,
    0xff, 0xfd, 0xec, 0xf1, 0xf6, 0x0d, 0xff, 0xe4, 0xec, 0xe5, 0x15, 0x0e,
    0xd7, 0xf1, 0xdb, 0x09, 0x81, 0xc4, 0x08, 0x10, 0xb1, 0x1a, 0x02, 0xf2,
    0xfb, 0xbd, 0xf4, 0x17, 0xfe, 0x0c, 0xf3, 0xe7, 0xf1, 0xf7, 0x0d, 0xe5,
    0x00, 0x08, 0x0e, 0x16, 0xfb, 0x26, 0x0e, 0xec, 0x11, 0xf9, 0x1a, 0x0a,
    0x09, 0x20, 0x18, 0xef, 0xf0, 0xfd, 0xea, 0x0d, 0x0d, 0x18, 0xea, 0xe1,
    0xdb, 0x04, 0xe4, 0xf7, 0x1d, 0x32, 0x00, 0xf0, 0xe4, 0xfe, 0xfd, 0x12,
    0x02, 0xf1, 0xff, 0x09, 0x03, 0x0c, 0x1d, 0xf5, 0xfe, 0x02, 0x05, 0xf9,
    0xf7, 0xd9, 0xe1, 0xff, 0xfc, 0xf7, 0xef, 0xec, 0x1b, 0x51, 0x05, 0x22,
    0x7f, 0xee, 0x00, 0x3e, 0xff, 0x3f, 0xf2, 0x22, 0xe9, 0xed, 0xe7, 0xf7,
    0xf8, 0x03, 0xfe, 0x1d, 0xf2, 0xec, 0xf2, 0xf7, 0xed, 0xe9, 0xdc, 0x09,
    0xe8, 0xef, 0x15, 0x00, 0x0c, 0xff, 0xf4, 0xe1, 0xea, 0xfd, 0xf9, 0xf6,
    0xec, 0x08, 0xf4, 0xf5, 0xe8, 0xfc, 0x09, 0xe8, 0xfd, 0xfb, 0x02, 0x07,
    0x02, 0xfa, 0x11, 0x01, 0x15, 0x0c, 0xff, 0x0b, 0xf8, 0x05, 0x14, 0x08,
    0x06, 0x02, 0xff, 0xf1, 0xf0, 0x05, 0x06, 0xf5, 0xca, 0xd1, 0xe2, 0x0e,
    0x81, 0x82, 0xfd, 0x06, 0xa9, 0xfe, 0xf7, 0x01, 0xae, 0x9c, 0xc2, 0xfd,
    0x1e, 0x0b, 0xfd, 0xf2, 0xd6, 0xf2, 0x12, 0x01, 0x02, 0x02, 0x0a, 0x19,
    0x0a, 0x42, 0xfa, 0xe9, 0x3a, 0x10, 0xdb, 0x08, 0x18, 0x1d, 0x07, 0xff,
    0xf8, 0xcd, 0xe1, 0xf2, 0x2d, 0x09, 0x0d, 0xfe, 0x90, 0xb0, 0xef, 0x36,
    0x36, 0x18, 0xfa, 0x05, 0xda, 0xc3, 0xce, 0x3a, 0x1a, 0xfb, 0x07, 0x1c,
    0xf0, 0xe0, 0xf8, 0x25, 0x0d, 0x1d, 0x02, 0x1d, 0x0d, 0x04, 0xe2, 0x0e,
    0x04, 0xf7, 0x25, 0x02, 0xff, 0x3b, 0x0a, 0x40, 0x7f, 0xf9, 0x0f, 0x46,
    0x15, 0x13, 0xbd, 0x07, 0xfd, 0xb3, 0xdb, 0x0b, 0x0e, 0x10, 0xf7, 0x2b,
    0xf6, 0xe7, 0xea, 0x0f, 0xfa, 0xec, 0xe1, 0xf1, 0xe1, 0x11, 0x31, 0xf5,
    0x0c, 0x06, 0xe4, 0xcd, 0xfe, 0xfb, 0xda, 0xca, 0xf3, 0x24, 0xf3, 0x0e,
    0xf3, 0x2b, 0xff, 0xfc, 0xfc, 0x0c, 0xff, 0x0d, 0x00, 0xe0, 0xfb, 0xeb,
    0x1c, 0x04, 0xdf, 0xf9, 0x12, 0x19, 0x22, 0xe9, 0xfe, 0x0a, 0xef, 0xdd,
    0xda, 0x0e, 0xfd, 0xfe, 0xe4, 0xc6, 0xdd, 0x13, 0x84, 0x81, 0x17, 0x0d,
    0xa1, 0x28, 0xe4, 0xf9, 0xb6, 0x9a, 0xce, 0x20, 0x0b, 0xfd, 0xf6, 0xde,
    0xfb, 0x04, 0xe1, 0x11, 0xef, 0xf4, 0x01, 0xeb, 0x0b, 0x08, 0xdd, 0xec,
    0xe7, 0xda, 0x1a, 0xf1, 0x18, 0x12, 0x05, 0xe1, 0xe7, 0xfc, 0xf3, 0xf2,
    0xe0, 0x31, 0xf1, 0x03, 0x16, 0xe8, 0x0d, 0xf9, 0x0e, 0xff, 0x29, 0x16,
    0x22, 0xfd, 0x21, 0x00, 0xff, 0x02, 0xdc, 0x1b, 0xec, 0x0a, 0x11, 0x07,
    0x03, 0xf1, 0x0f, 0x21, 0xf6, 0xe8, 0x0c, 0xfe, 0xfe, 0xfa, 0xe1, 0xeb,
    0x81, 0xa8, 0xff, 0x00, 0xaf, 0xf3, 0xf7, 0xf3, 0xcc, 0xb9, 0x05, 0xfc,
    0xf6, 0xeb, 0xf4, 0xf7, 0xf3, 0x13, 0xfe, 0x1b, 0x18, 0x05, 0xfd, 0xf3,
    0xe9, 0xe0, 0x12, 0x4e, 0x01, 0xf3, 0xec, 0xe9, 0x11, 0x0b, 0x04, 0xf8,
    0x05, 0xe9, 0xe2, 0xe0, 0xf2, 0x0f, 0xfd, 0x24, 0x14, 0xde, 0xe7, 0xbf,
    0xe5, 0x05, 0x09, 0x43, 0x14, 0xea, 0x25, 0x07, 0xe7, 0x03, 0xfe, 0x44,
    0x17, 0x06, 0x11, 0x02, 0xf4, 0xf1, 0x17, 0x5a, 0x0f, 0xee, 0x1e, 0xfd,
    0xdf, 0xdb, 0x19, 0x1b, 0x81, 0xc5, 0x01, 0x17, 0xa1, 0x09, 0xf4, 0xfa,
    0x02, 0xdd, 0x0a, 0x02, 0x04, 0x20, 0x03, 0xff, 0x00, 0xfe, 0xfd, 0x01,
    0x17, 0x29, 0x1b, 0x26, 0x0e, 0x2e, 0xea, 0xf1, 0x09, 0x0f, 0x24, 0x33,
    0x34, 0x15, 0xec, 0xec, 0xf5, 0xfc, 0x07, 0xf7, 0x4e, 0x11, 0xfb, 0xe9,
    0x04, 0x0c, 0x01, 0x10, 0x5a, 0x52, 0x11, 0x04, 0x3d, 0x38, 0xea, 0x07,
    0x22, 0x3e, 0x15, 0x06, 0x50, 0x17, 0x04, 0xff, 0x09, 0xfe, 0x0e, 0x14,
    0x22, 0xfc, 0xfc, 0xf5, 0x01, 0xfe, 0x00, 0xe4, 0x14, 0x11, 0x15, 0x33,
    0x46, 0x18, 0x01, 0x1f, 0xfb, 0x7f, 0xee, 0x0f, 0x17, 0xef, 0x01, 0xf4,
    0xf9, 0xec, 0xed, 0xfc, 0xf6, 0xf8, 0x08, 0xee, 0x03, 0x14, 0xf0, 0xea,
    0x19, 0xf2, 0xec, 0xfb, 0x11, 0xfc, 0xf7, 0x08, 0xf1, 0xf0, 0xfe, 0xf9,
    0x07, 0xeb, 0xf7, 0xfb, 0x04, 0x04, 0x07, 0x0c, 0xf5, 0x15, 0xf4, 0xfc,
    0xfc, 0x06, 0xf4, 0x15, 0xfe, 0x08, 0x02, 0xed, 0xff, 0xf9, 0xfb, 0xfc,
    0xfd, 0xf1, 0x08, 0x02, 0xf4, 0xe9, 0xe9, 0xff, 0x00, 0xf6, 0x01, 0xff,
    0x21, 0x33, 0x12, 0x19, 0x7f, 0x06, 0x03, 0x1b, 0xfa, 0x2f, 0xe5, 0x14,
    0xed, 0xff, 0x0f, 0xff, 0x02, 0x08, 0xf9, 0x01, 0x09, 0x03, 0x11, 0xe2,
    0xda, 0xfb, 0xeb, 0xef, 0x09, 0xfb, 0xf5, 0xfb, 0xfa, 0xe4, 0xff, 0xf2,
    0xf6, 0xec, 0xea, 0xe3, 0xfb, 0x01, 0xf3, 0xf4, 0x01, 0xfc, 0xfa, 0xe5,
    0x02, 0x01, 0xe0, 0x17, 0x17, 0x15, 0x05, 0x0a, 0x13, 0xf4, 0xfd, 0x11,
    0x2f, 0xe1, 0x14, 0x0e, 0xf2, 0xf9, 0x13, 0x1a, 0xe7, 0xe9, 0x05, 0xf9,
    0xe2, 0xe9, 0xee, 0x0a, 0x81, 0xb1, 0x00, 0x06, 0xb4, 0x0b, 0xfe, 0xeb,
    0xe2, 0xbd, 0xfd, 0xfb, 0x0a, 0x02, 0xf4, 0x0f, 0xfa, 0x23, 0x01, 0xff,
    0xfb, 0xcc, 0x01, 0xee, 0x10, 0xe7, 0x03, 0xfe, 0xfe, 0xf5, 0x06, 0xd6,
    0x1a, 0xfe, 0x02, 0xff, 0x1e, 0xfa, 0x01, 0x06, 0xf1, 0x09, 0xfe, 0xfb,
    0x0c, 0xff, 0xf8, 0xed, 0xfb, 0xff, 0xf7, 0x0f, 0x1b, 0x09, 0xf3, 0xfb,
    0x03, 0x12, 0xea, 0xf9, 0x01, 0x01, 0xf3, 0xe9, 0xd8, 0x04, 0xfd, 0xda,
    0xef, 0x01, 0x18, 0x07, 0xf8, 0xff, 0xf7, 0xf0, 0x81, 0xd5, 0x06, 0x18,
    0xc9, 0x21, 0x0d, 0xee, 0xe3, 0xb6, 0xee, 0x1f, 0x01, 0xfc, 0xdf, 0xeb,
    0xfe, 0x0e, 0x2c, 0x36, 0x0c, 0xed, 0xfd, 0x01, 0x0a, 0x00, 0x08, 0x17,
    0x21, 0x18, 0x02, 0xea, 0xf9, 0x15, 0xf2, 0x0c, 0x0e, 0x00, 0x03, 0x0b,
    0xe9, 0x1c, 0x11, 0x1d, 0x14, 0x0e, 0xf9, 0xd3, 0xfc, 0xee, 0x06, 0x07,
    0x0e, 0x05, 0xfd, 0xe1, 0xf6, 0xe9, 0xdf, 0xe6, 0x02, 0x1a, 0x02, 0xf0,
    0xe1, 0x14, 0x01, 0xb1, 0xe8, 0xf9, 0x0b, 0x0b, 0xec, 0xf0, 0xf9, 0xec,
    0x81, 0xb2, 0xf4, 0xfb, 0xa3, 0xfd, 0xd3, 0xf1, 0xe1, 0xdd, 0xf0, 0xf6,
    0xfe, 0x09, 0x0b, 0xe1, 0xfe, 0xca, 0xe9, 0xf4, 0xfe, 0xf0, 0xfb, 0x2c,
    0xfa, 0x25, 0xf9, 0x06, 0xfb, 0x02, 0x06, 0x22, 0x09, 0x10, 0xe1, 0xfa,
    0xfe, 0x08, 0xf4, 0x0c, 0x30, 0xf6, 0xfc, 0xfc, 0xe3, 0xe9, 0xe1, 0x05,
    0xfa, 0xfa, 0xf2, 0xf9, 0xec, 0xf8, 0xf8, 0x13, 0x02, 0xf5, 0xf6, 0x06,
    0xed, 0xf6, 0xfa, 0x27, 0x08, 0xe5, 0xf9, 0x0a, 0xe7, 0xf0, 0xdd, 0x11,
    0x08, 0xf6, 0x03, 0xf7, 0x04, 0x43, 0xf9, 0x0a, 0x7f, 0xf7, 0x21, 0x29,
    0x08, 0x26, 0xed, 0x08, 0xe9, 0x00, 0xf8, 0x0a, 0xfa, 0xf6, 0xfb, 0xfd,
    0xfa, 0xfe, 0x0a, 0x0b, 0xff, 0xfa, 0xe8, 0x07, 0x02, 0x01, 0x09, 0x19,
    0xfc, 0xfe, 0xe4, 0xf8, 0xf9, 0x10, 0x01, 0xfc, 0x10, 0xf8, 0xee, 0xf2,
    0xe8, 0x09, 0xf1, 0x01, 0xfc, 0x0b, 0x12, 0x05, 0xde, 0x00, 0xf0, 0x0b,
    0xf9, 0x13, 0x08, 0x10, 0xdf, 0xfb, 0x04, 0x0a, 0x03, 0x04, 0xf9, 0x03,
    0xe9, 0xfb, 0xf4, 0xfe, 0xfc, 0xee, 0x00, 0xf4, 0x0b, 0x22, 0xea, 0xff,
    0x7f, 0xe4, 0x08, 0x2c, 0x0d, 0x17, 0xef, 0xf7, 0xf6, 0x26, 0xff, 0xef,
    0xf5, 0x1b, 0x11, 0x1c, 0x16, 0x14, 0x23, 0xd7, 0xe0, 0xc8, 0xd4, 0x36,
    0x32, 0xf1, 0xda, 0xdf, 0xd0, 0xfe, 0xfe, 0xeb, 0x1f, 0xf7, 0xe2, 0xf3,
    0x02, 0x10, 0xed, 0xfb, 0xff, 0xfc, 0xf7, 0xac, 0xf9, 0xfb, 0x08, 0x29,
    0x32, 0x00, 0x1a, 0x1e, 0x0e, 0xe3, 0x02, 0x1c, 0xff, 0x11, 0x31, 0x1c,
    0xe9, 0x02, 0x15, 0x4f, 0x24, 0xe3, 0xf5, 0xf9, 0xc7, 0xe1, 0xf8, 0x11,
    0x81, 0xbf, 0xf6, 0xea, 0xab, 0xf9, 0x03, 0x07, 0x15, 0x91, 0x23, 0xfc,
    0xfa, 0x1f, 0xfa, 0xe6, 0x06, 0xfd, 0xca, 0x00, 0xec, 0xf9, 0x0d, 0x11,
    0xff, 0x1f, 0xf6, 0xda, 0xf3, 0x12, 0x00, 0x15, 0x1a, 0x00, 0xeb, 0xcc,
    0xdc, 0x01, 0x21, 0x05, 0x42, 0x1c, 0xec, 0x0a, 0xf2, 0x17, 0xe6, 0xf3,
    0x46, 0x36, 0x19, 0x02, 0xfd, 0x0c, 0xeb, 0x02, 0xff, 0xf5, 0x06, 0x09,
    0x0b, 0x0a, 0x14, 0x12, 0x0e, 0x01, 0x06, 0xfd, 0x02, 0xe4, 0xec, 0x0a,
    0xeb, 0x0e, 0x0e, 0xde, 0xf9, 0x48, 0xfa, 0x19, 0x7f, 0xe7, 0xf8, 0x14,
    0x28, 0x73, 0xc1, 0x22, 0x0f, 0x1e, 0xe8, 0x10, 0x2a, 0x22, 0x0f, 0x09,
    0xfc, 0x00, 0xd8, 0xda, 0xde, 0x19, 0x04, 0xf4, 0x08, 0xd9, 0x02, 0x02,
    0xdf, 0xf0, 0xe7, 0xdf, 0x1a, 0xf8, 0xfe, 0xf8, 0x1c, 0x0c, 0xd5, 0xfc,
    0x00, 0xfc, 0x33, 0xce, 0xcd, 0x1a, 0xf5, 0xd9, 0x01, 0x00, 0xd1, 0x35,
    0xee, 0xf7, 0xdb, 0xe5, 0x81, 0xf8, 0xfc, 0xfa, 0xde, 0x03, 0x00, 0x30,
    0xd2, 0xe6, 0x00, 0x14, 0xe6, 0x24, 0x15, 0x20, 0xfa, 0xf2, 0x09, 0x0a,
    0x8b, 0x18, 0x13, 0xe5, 0x12, 0x03, 0xfd, 0xec, 0x20, 0x1b, 0x0d, 0xfe,
    0xf3, 0x0a, 0xf8, 0x09, 0x32, 0x13, 0x08, 0xf4, 0xf2, 0x03, 0x04, 0x03,
    0x0d, 0xfb, 0xe0, 0xf6, 0xfa, 0x02, 0xfa, 0xf5, 0x0e, 0xfd, 0xf0, 0xee,
    0x09, 0xfe, 0xde, 0xda, 0xf6, 0xd9, 0xfe, 0xdb, 0xe9, 0xf9, 0xdf, 0x04,
    0xef, 0xf8, 0x32, 0xde, 0xe0, 0xeb, 0xd5, 0x18, 0x09, 0x19, 0x14, 0x09,
    0xff, 0xf9, 0xf7, 0x7f, 0x0b, 0x1c, 0x1b, 0x2e, 0xff, 0x02, 0x14, 0x18,
    0x81, 0xbc, 0xf6, 0xf5, 0xd4, 0xf1, 0xef, 0x00, 0xf6, 0xc9, 0xfd, 0xf6,
    0xdb, 0x1f, 0xe7, 0xf6, 0x0c, 0x04, 0xf2, 0xf5, 0xde, 0xd1, 0xe6, 0xe6,
    0xc1, 0xf6, 0xdf, 0x00, 0xeb, 0xee, 0x16, 0x0a, 0x03, 0xe9, 0x14, 0xcc,
    0xf3, 0x01, 0x11, 0xdd, 0xe7, 0x03, 0xff, 0xf3, 0x14, 0xe5, 0x0a, 0xed,
    0x19, 0x1b, 0xec, 0x17, 0xf9, 0x00, 0x07, 0x2e, 0x13, 0xf6, 0xe4, 0x1c,
    0xf8, 0x07, 0xe4, 0xf4, 0xf8, 0xda, 0x10, 0xe4, 0x00, 0xf0, 0xfc, 0xf3,
    0xe9, 0xc8, 0x00, 0x02, 0x81, 0xa3, 0x0d, 0x09, 0x95, 0xfd, 0xdb, 0x03,
    0x99, 0xc2, 0xd8, 0x03, 0xe9, 0xe2, 0xfe, 0xee, 0xf4, 0xdf, 0xd4, 0x07,
    0xea, 0x0c, 0x09, 0xd7, 0x03, 0xfb, 0xec, 0xf9, 0xe0, 0x09, 0x00, 0xf1,
    0x2c, 0x0d, 0x07, 0xd0, 0xf5, 0x01, 0xf2, 0x0b, 0xff, 0x37, 0x0a, 0x14,
    0xff, 0x13, 0xfd, 0x0b, 0xff, 0xfe, 0x02, 0xe8, 0x0f, 0x04, 0xf4, 0xe9,
    0x0a, 0xdb, 0xf8, 0x0f, 0xfa, 0xf2, 0x07, 0xfe, 0x0a, 0x1b, 0x17, 0xe7,
    0xe5, 0xf6, 0x06, 0xf0, 0xe5, 0xdb, 0xce, 0xfe, 0x81, 0x9d, 0xf8, 0x06,
    0x91, 0xf4, 0xf7, 0xf6, 0xbe, 0xa7, 0xdb, 0xff, 0xf9, 0xfb, 0x01, 0xfb,
    0xfe, 0xf0, 0x00, 0xfa, 0xed, 0xf9, 0x06, 0x0b, 0x0b, 0x1e, 0xf9, 0xf2,
    0x05, 0x00, 0xfa, 0x14, 0x13, 0x0c, 0xf6, 0xef, 0xfd, 0x00, 0xf7, 0xfe,
    0x29, 0x01, 0xf5, 0xec, 0xdd, 0x00, 0x12, 0x09, 0x2b, 0x30, 0x01, 0xfd,
    0xe6, 0xf6, 0xfe, 0x11, 0x07, 0x13, 0x0a, 0xf9, 0xf2, 0xf8, 0x07, 0x12,
    0x0e, 0x11, 0x0c, 0xff, 0xef, 0xf5, 0xfa, 0xf8, 0x08, 0x04, 0x08, 0xef,
    0xfe, 0x32, 0x0a, 0x08, 0x7f, 0x05, 0x0c, 0x32, 0x08, 0x31, 0xf3, 0x14,
    0xf4, 0xe1, 0x00, 0x01, 0xef, 0xe7, 0x15, 0x0e, 0x05, 0xec, 0xeb, 0x09,
    0x03, 0x1b, 0x01, 0xff, 0x0a, 0x0f, 0x26, 0x19, 0x22, 0xed, 0xfa, 0x05,
    0xed, 0xfe, 0x15, 0x0c, 0x1f, 0xda, 0xeb, 0x0b, 0xea, 0xff, 0x02, 0x03,
    0x05, 0xe4, 0xe9, 0xfd, 0xfd, 0x19, 0x05, 0x07, 0xf0, 0xd3, 0xea, 0xef,
    0xe3, 0xf0, 0xfe, 0x0e, 0xf8, 0xf0, 0xfa, 0xf8, 0xf5, 0xea, 0xf0, 0xec,
    0x04, 0x17, 0x29, 0x3c, 0xf8, 0x37, 0x01, 0x00, 0x7f, 0x02, 0x1e, 0x29,
    0xfb, 0x34, 0x04, 0x0b, 0x14, 0x02, 0xec, 0xf0, 0x12, 0x41, 0x39, 0x3b,
    0x1b, 0x04, 0x10, 0x13, 0xf5, 0xf1, 0x05, 0x23, 0xfb, 0xf7, 0xe8, 0xe2,
    0xfb, 0xf0, 0x1b, 0xf2, 0x01, 0xe1, 0xef, 0xfd, 0xea, 0xe1, 0xc1, 0x04,
    0xfc, 0xc5, 0xf5, 0xda, 0xec, 0xee, 0xeb, 0x01, 0x08, 0xde, 0x25, 0xf5,
    0x00, 0x02, 0xe6, 0x2b, 0x22, 0xf2, 0x36, 0x0b, 0x00, 0xf1, 0x2c, 0x7d,
    0x1d, 0xe3, 0x1e, 0x18, 0x02, 0xf0, 0xf9, 0x0f, 0xd1, 0xdf, 0x25, 0x04,
    0xbc, 0x2f, 0x3d, 0xec, 0x28, 0x81, 0x31, 0x24, 0x29, 0xf7, 0xbc, 0xa9,
    0x98, 0xf1, 0x10, 0x12, 0x0c, 0x22, 0xfb, 0xe4, 0xf5, 0xfc, 0xd5, 0x0b,
    0x2f, 0x28, 0xfb, 0x04, 0x15, 0x22, 0xfa, 0xf8, 0x21, 0x42, 0x0a, 0x07,
    0x48, 0x44, 0x35, 0xfa, 0x01, 0x1a, 0x0c, 0x12, 0x32, 0x74, 0x4c, 0xf9,
    0xdf, 0xf8, 0xeb, 0xff, 0x15, 0x4d, 0x1b, 0x02, 0xd5, 0xfe, 0xf1, 0xf2,
    0x0b, 0x0e, 0x3a, 0xff, 0xef, 0xf7, 0xe7, 0xc8, 0x01, 0x05, 0x15, 0x01,
    0xee, 0x4e, 0x0e, 0x2a, 0x7f, 0x1b, 0xff, 0x45, 0xf7, 0x3c, 0xdc, 0x0f,
    0xfc, 0x0d, 0xec, 0xf8, 0x06, 0x1f, 0x15, 0x0e, 0x0e, 0xff, 0x1a, 0x0d,
    0xe5, 0xed, 0x04, 0x07, 0x27, 0x03, 0xe9, 0xdd, 0xfc, 0xf1, 0xfb, 0xd1,
    0x07, 0xdc, 0xf1, 0xed, 0xf9, 0x0f, 0x16, 0xfb, 0x00, 0xd9, 0xf6, 0xe8,
    0x08, 0xf0, 0x08, 0x07, 0x24, 0xf3, 0x0d, 0xf7, 0xf7, 0x09, 0x01, 0x00,
    0x1e, 0xe8, 0xeb, 0x07, 0xfa, 0x17, 0x04, 0x13, 0x01, 0xeb, 0x06, 0xf0,
    0xed, 0x0a, 0xee, 0x00, 0x81, 0xd9, 0xf2, 0x01, 0xb2, 0xfe, 0xe0, 0xde,
    0x14, 0xec, 0x36, 0xf7, 0xfe, 0x1f, 0xd9, 0xfc, 0x02, 0x17, 0x46, 0x3b,
    0x4c, 0xe8, 0x03, 0x1a, 0x07, 0xab, 0x11, 0xe5, 0x19, 0xf9, 0xbe, 0xbb,
    0x10, 0xfd, 0x29, 0x25, 0x38, 0x06, 0xd1, 0x00, 0xc5, 0xfc, 0x37, 0x12,
    0x09, 0xf4, 0xeb, 0xd5, 0x14, 0xf1, 0x08, 0x11, 0x2e, 0xf5, 0x50, 0xdd,
    0x0b, 0xff, 0xf0, 0xe9, 0xf3, 0x31, 0xfe, 0x16, 0xf0, 0x08, 0x0e, 0x2e,
    0x2b, 0xc2, 0x01, 0x1a, 0xf0, 0x0e, 0xf3, 0x13, 0x9d, 0x05, 0xf0, 0xdd,
    0xa9, 0x05, 0xc8, 0x0c, 0x53, 0xfd, 0x7f, 0xf9, 0x06, 0x01, 0x07, 0xdf,
    0xf6, 0x00, 0xd7, 0xed, 0xec, 0xf4, 0x0a, 0xf7, 0x00, 0x23, 0xe7, 0xf3,
    0x11, 0x04, 0xf8, 0x05, 0x1a, 0xfa, 0x01, 0x0c, 0xdf, 0xfa, 0xdf, 0x01,
    0x15, 0xef, 0x01, 0xf3, 0xce, 0x07, 0xf9, 0x05, 0xf8, 0x03, 0xf7, 0xf7,
    0x00, 0x29, 0xf6, 0xfc, 0x01, 0xf7, 0xd8, 0xf1, 0xf7, 0x14, 0x0d, 0x19,
    0x07, 0xe6, 0xe5, 0xe3, 0xfd, 0xf4, 0xe3, 0xd8, 0xff, 0xfa, 0xf9, 0x23,
    0x04, 0x4e, 0x0e, 0x16, 0x7f, 0x05, 0x17, 0x06, 0xfa, 0x5b, 0xf7, 0x08,
    0xfe, 0xfc, 0xff, 0xff, 0x04, 0x00, 0x00, 0x00, 0x80, 0x00, 0x00, 0x00,
    0x8a, 0x00, 0x00, 0x00, 0x1e, 0x02, 0x00, 0x00, 0x17, 0xff, 0xff, 0xff,
    0xa1, 0xbe, 0x7f, 0xff, 0x52, 0x00, 0x00, 0x00, 0x19, 0x02, 0x00, 0x00,
    0xe3, 0xff, 0xff, 0xff, 0x88, 0x03, 0x00, 0x00, 0x05, 0xfa, 0xff, 0xff,
    0xd8, 0x02, 0x00, 0x00, 0x1c, 0x01, 0x00, 0x00, 0xf0, 0xff, 0xff, 0xff,
    0xc2, 0xf7, 0xff, 0xff, 0xb9, 0x03, 0x00, 0x00, 0xbc, 0x00, 0x00, 0x00,
    0xda, 0x03, 0x00, 0x00, 0x88, 0x04, 0x00, 0x00, 0xb2, 0x02, 0x00, 0x00,
    0xa2, 0x01, 0x00, 0x00, 0xcb, 0xfe, 0xff, 0xff, 0x49, 0xfb, 0xff, 0xff,
    0x83, 0x7a, 0xda, 0xff, 0x43, 0xf1, 0xff, 0xff, 0x62, 0xf9, 0xff, 0xff,
    0xee, 0xfd, 0xff, 0xff, 0x51, 0xff, 0xff, 0xff, 0x99, 0x01, 0x00, 0x00,
    0xe4, 0xff, 0xff, 0xff, 0xbc, 0xf7, 0xff, 0xff, 0x8f, 0x02, 0x00, 0x00,
    0x49, 0xfd, 0xff, 0xff, 0xff, 0x01, 0x00, 0x00, 0x8a, 0xfd, 0xff, 0xff,
    0x04, 0x00, 0x00, 0x00, 0x00, 0x02, 0x00, 0x00, 0x77, 0x5a, 0xfb, 0x00,
    0xd8, 0x62, 0xc4, 0x42, 0xc8, 0x79, 0x70, 0x36, 0xfe, 0xbe, 0x76, 0x7f,
    0x67, 0xe3, 0xb6, 0x63, 0xdb, 0x00, 0x0f, 0x6c, 0x74, 0xda, 0xbf, 0x4c,
    0xfc, 0x75, 0x54, 0xda, 0x5d, 0x4e, 0x06, 0x00, 0xce, 0x58, 0xe1, 0x2f,
    0xe9, 0x7f, 0x63, 0x3a, 0xfe, 0xdd, 0x63, 0x66, 0x42, 0xf6, 0xdd, 0x4e,
    0xf9, 0x00, 0x08, 0x5b, 0x71, 0xee, 0xb0, 0x43, 0x02, 0x6d, 0x51, 0xd2,
    0xf1, 0xeb, 0x1c, 0x00, 0x10, 0xf5, 0x3e, 0xfe, 0x1c, 0xf1, 0xef, 0x01,
    0x03, 0x2c, 0xff, 0xea, 0xee, 0x14, 0x41, 0xf2, 0x29, 0x00, 0xf9, 0xfa,
    0xeb, 0x24, 0x7f, 0xe4, 0x19, 0xe9, 0xec, 0x31, 0x29, 0x68, 0x05, 0xfb,
    0xf6, 0x21, 0xf7, 0x37, 0xdc, 0x7b, 0x2d, 0x1b, 0x12, 0xd6, 0x6e, 0x7f,
    0x0f, 0xe9, 0xf7, 0x27, 0xe0, 0x10, 0x43, 0x52, 0x73, 0x09, 0xc6, 0x4a,
    0x31, 0x5f, 0x55, 0xcc, 0xec, 0xfc, 0x08, 0xfd, 0x13, 0xf6, 0x7f, 0xfe,
    0x45, 0xf3, 0xf6, 0xf4, 0xf3, 0x06, 0xff, 0xe8, 0xf3, 0x56, 0x7b, 0xf1,
    0x46, 0x00, 0x14, 0xfa, 0x06, 0x45, 0x02, 0xf4, 0x45, 0xee, 0xd9, 0x01,
    0xea, 0xdc, 0x52, 0x00, 0x3c, 0xf9, 0x56, 0xf5, 0x73, 0xf8, 0xed, 0xfa,
    0x30, 0x7f, 0xfb, 0xda, 0xf5, 0x49, 0x57, 0xeb, 0x59, 0x00, 0x07, 0xe8,
    0xe0, 0x72, 0x64, 0xd6, 0x26, 0xde, 0xd0, 0x71, 0xde, 0xdc, 0x19, 0x00,
    0x36, 0xf0, 0x73, 0x01, 0x5e, 0xe9, 0xec, 0xf3, 0x08, 0x7f, 0xf7, 0xe7,
    0xed, 0x36, 0x40, 0xf6, 0x41, 0x00, 0xf3, 0xf5, 0xd8, 0x2b, 0x5e, 0xd5,
    0x01, 0xda, 0xcd, 0x3c, 0x7f, 0x15, 0x13, 0x00, 0xed, 0x30, 0xeb, 0x23,
    0xf3, 0x5b, 0x34, 0x21, 0xf4, 0xf6, 0x33, 0x3f, 0x28, 0xf8, 0xea, 0x0b,
    0xf3, 0x00, 0x04, 0x55, 0x42, 0xf9, 0xdc, 0x1d, 0x02, 0x26, 0x2f, 0xe2,
    0x7f, 0x46, 0xf8, 0xf9, 0xdc, 0x59, 0xd9, 0x3c, 0xef, 0x53, 0x5d, 0x25,
    0xff, 0xd1, 0x7b, 0x59, 0x63, 0xe6, 0x01, 0x76, 0xe9, 0x02, 0x07, 0x4b,
    0x53, 0xea, 0xdb, 0x46, 0x04, 0x54, 0x72, 0xda, 0x45, 0xf7, 0x00, 0x00,
    0xeb, 0x0a, 0xde, 0x37, 0xfa, 0x6a, 0x7f, 0x0d, 0xf8, 0xdf, 0x7c, 0x73,
    0x15, 0xf6, 0xdd, 0x71, 0x03, 0x03, 0x0f, 0x56, 0x33, 0xe7, 0xdb, 0x1d,
    0xff, 0x22, 0x04, 0xe5, 0xe7, 0xe3, 0x31, 0x00, 0x31, 0xe5, 0x2b, 0xf2,
    0x50, 0xdc, 0xe7, 0xfc, 0x12, 0x53, 0xec, 0xe1, 0xdd, 0x4f, 0x37, 0xf1,
    0x2f, 0x00, 0x00, 0xea, 0xdc, 0x3b, 0x7f, 0xe0, 0x0c, 0xe9, 0xde, 0x56,
    0xeb, 0xe8, 0x2c, 0xf6, 0x2f, 0xe2, 0x25, 0x1d, 0x4a, 0xf5, 0xeb, 0xfd,
    0x30, 0x70, 0xf9, 0xed, 0xe7, 0x10, 0x2c, 0xfa, 0x47, 0x0a, 0x02, 0x0d,
    0xdb, 0x22, 0x4b, 0xe0, 0xf6, 0xe8, 0xe5, 0x7f, 0x66, 0x56, 0xee, 0x00,
    0xdf, 0x7e, 0xd6, 0x3b, 0xd6, 0x7f, 0x65, 0x22, 0xfc, 0xb9, 0x51, 0x79,
    0x4d, 0xe0, 0xc9, 0x46, 0xe2, 0x00, 0x03, 0x5f, 0x67, 0xe8, 0xc1, 0x3f,
    0xff, 0x58, 0x4e, 0xcc, 0x7f, 0x51, 0x00, 0xf9, 0x16, 0x59, 0x12, 0x32,
    0xf1, 0x3b, 0x49, 0x4d, 0xef, 0xd7, 0x1c, 0x79, 0x66, 0xe5, 0xd7, 0xf7,
    0xf1, 0xfd, 0x11, 0x43, 0x72, 0xfa, 0xd2, 0x25, 0xef, 0x46, 0x40, 0xd8,
    0x44, 0x1e, 0xf2, 0x2c, 0xd0, 0x4b, 0xde, 0x2a, 0xe3, 0x7f, 0x56, 0x1a,
    0xf7, 0xd2, 0x30, 0x3a, 0x25, 0xff, 0xe6, 0x7e, 0x0a, 0xec, 0x0b, 0x65,
    0x3d, 0xee, 0xd2, 0x30, 0x23, 0x73, 0xf5, 0xf9, 0xe7, 0xe5, 0x30, 0x00,
    0x28, 0xe0, 0x7f, 0xef, 0x4e, 0xdf, 0xe7, 0xf7, 0x13, 0x58, 0xf4, 0xe4,
    0xeb, 0x3c, 0x45, 0xe9, 0x42, 0x00, 0x02, 0xee, 0xe3, 0x50, 0x54, 0xe0,
    0x13, 0xe6, 0xdc, 0x7b, 0x96, 0xff, 0xff, 0xff, 0x04, 0x00, 0x00, 0x00,
    0x40, 0x00, 0x00, 0x00, 0x8d, 0x5e, 0x00, 0x00, 0x5b, 0x28, 0x00, 0x00,
    0x82, 0x17, 0x00, 0x00, 0x0a, 0x13, 0x00, 0x00, 0xc7, 0x0f, 0x00, 0x00,
    0xeb, 0x20, 0x00, 0x00, 0xfc, 0x39, 0x00, 0x00, 0x47, 0x0c, 0x00, 0x00,
    0x19, 0x1e, 0x00, 0x00, 0x6b, 0x0f, 0x00, 0x00, 0xc2, 0x38, 0x00, 0x00,
    0x6e, 0x13, 0x00, 0x00, 0x7b, 0x3f, 0x00, 0x00, 0x78, 0x0d, 0x00, 0x00,
    0x09, 0x15, 0x00, 0x00, 0x02, 0x40, 0x00, 0x00, 0xe2, 0xff, 0xff, 0xff,
    0x04, 0x00, 0x00, 0x00, 0x10, 0x00, 0x00, 0x00, 0xae, 0xa4, 0x65, 0x92,
    0x69, 0x70, 0x4b, 0x81, 0xa1, 0x8f, 0x51, 0x5f, 0xaf, 0x94, 0x8a, 0x41,
    0x00, 0x00, 0x06, 0x00, 0x08, 0x00, 0x04, 0x00, 0x06, 0x00, 0x00, 0x00,
    0x04, 0x00, 0x00, 0x00, 0x04, 0x00, 0x00, 0x00, 0xc4, 0x08, 0x00, 0x00,
    0x54, 0xff, 0xff, 0xff, 0x58, 0xff, 0xff, 0xff, 0x0f, 0x00, 0x00, 0x00,
    0x4d, 0x4c, 0x49, 0x52, 0x20, 0x43, 0x6f, 0x6e, 0x76, 0x65, 0x72, 0x74,
    0x65, 0x64, 0x2e, 0x00, 0x01, 0x00, 0x00, 0x00, 0x14, 0x00, 0x00, 0x00,
    0x00, 0x00, 0x0e, 0x00, 0x18, 0x00, 0x14, 0x00, 0x10, 0x00, 0x0c, 0x00,
    0x08, 0x00, 0x04, 0x00, 0x0e, 0x00, 0x00, 0x00, 0x14, 0x00, 0x00, 0x00,
    0x1c, 0x00, 0x00, 0x00, 0x1c, 0x01, 0x00, 0x00, 0x20, 0x01, 0x00, 0x00,
    0x24, 0x01, 0x00, 0x00, 0x04, 0x00, 0x00, 0x00, 0x6d, 0x61, 0x69, 0x6e,
    0x00, 0x00, 0x00, 0x00, 0x04, 0x00, 0x00, 0x00, 0xc4, 0x00, 0x00, 0x00,
    0x7c, 0x00, 0x00, 0x00, 0x34, 0x00, 0x00, 0x00, 0x10, 0x00, 0x00, 0x00,
    0x00, 0x00, 0x0a, 0x00, 0x10, 0x00, 0x0c, 0x00, 0x08, 0x00, 0x04, 0x00,
    0x0a, 0x00, 0x00, 0x00, 0x0c, 0x00, 0x00, 0x00, 0x10, 0x00, 0x00, 0x00,
    0x01, 0x00, 0x00, 0x00, 0x01, 0x00, 0x00, 0x00, 0x0a, 0x00, 0x00, 0x00,
    0x01, 0x00, 0x00, 0x00, 0x09, 0x00, 0x00, 0x00, 0xca, 0xff, 0xff, 0xff,
    0x14, 0x00, 0x00, 0x00, 0x00, 0x00, 0x00, 0x08, 0x10, 0x00, 0x00, 0x00,
    0x14, 0x00, 0x00, 0x00, 0x04, 0x00, 0x04, 0x00, 0x04, 0x00, 0x00, 0x00,
    0x01, 0x00, 0x00, 0x00, 0x09, 0x00, 0x00, 0x00, 0x03, 0x00, 0x00, 0x00,
    0x08, 0x00, 0x00, 0x00, 0x02, 0x00, 0x00, 0x00, 0x01, 0x00, 0x00, 0x00,
    0x00, 0x00, 0x0e, 0x00, 0x14, 0x00, 0x00, 0x00, 0x10, 0x00, 0x0c, 0x00,
    0x0b, 0x00, 0x04, 0x00, 0x0e, 0x00, 0x00, 0x00, 0x10, 0x00, 0x00, 0x00,
    0x00, 0x00, 0x00, 0x08, 0x10, 0x00, 0x00, 0x00, 0x14, 0x00, 0x00, 0x00,
    0xba, 0xff, 0xff, 0xff, 0x00, 0x00, 0x00, 0x01, 0x01, 0x00, 0x00, 0x00,
    0x08, 0x00, 0x00, 0x00, 0x03, 0x00, 0x00, 0x00, 0x07, 0x00, 0x00, 0x00,
    0x04, 0x00, 0x00, 0x00, 0x03, 0x00, 0x00, 0x00, 0x00, 0x00, 0x0e, 0x00,
    0x16, 0x00, 0x00, 0x00, 0x10, 0x00, 0x0c, 0x00, 0x0b, 0x00, 0x04, 0x00,
    0x0e, 0x00, 0x00, 0x00, 0x18, 0x00, 0x00, 0x00, 0x00, 0x00, 0x00, 0x08,
    0x18, 0x00, 0x00, 0x00, 0x1c, 0x00, 0x00, 0x00, 0x00, 0x00, 0x06, 0x00,
    0x08, 0x00, 0x07, 0x00, 0x06, 0x00, 0x00, 0x00, 0x00, 0x00, 0x00, 0x01,
    0x01, 0x00, 0x00, 0x00, 0x07, 0x00, 0x00, 0x00, 0x03, 0x00, 0x00, 0x00,
    0x00, 0x00, 0x00, 0x00, 0x06, 0x00, 0x00, 0x00, 0x05, 0x00, 0x00, 0x00,
    0x01, 0x00, 0x00, 0x00, 0x0a, 0x00, 0x00, 0x00, 0x01, 0x00, 0x00, 0x00,
    0x00, 0x00, 0x00, 0x00, 0x0b, 0x00, 0x00, 0x00, 0x60, 0x09, 0x00, 0x00,
    0xe8, 0x08, 0x00, 0x00, 0x6c, 0x08, 0x00, 0x00, 0x58, 0x07, 0x00, 0x00,
    0x3c, 0x06, 0x00, 0x00, 0x68, 0x04, 0x00, 0x00, 0x8c, 0x02, 0x00, 0x00,
    0xd8, 0x01, 0x00, 0x00, 0x1c, 0x01, 0x00, 0x00, 0x80, 0x00, 0x00, 0x00,
    0x04, 0x00, 0x00, 0x00, 0xe2, 0xf6, 0xff, 0xff, 0x00, 0x00, 0x00, 0x01,
    0x18, 0x00, 0x00, 0x00, 0x20, 0x00, 0x00, 0x00, 0x3c, 0x00, 0x00, 0x00,
    0x0b, 0x00, 0x00, 0x00, 0x00, 0x00, 0x00, 0x09, 0x50, 0x00, 0x00, 0x00,
    0x02, 0x00, 0x00, 0x00, 0xff, 0xff, 0xff, 0xff, 0x01, 0x00, 0x00, 0x00,
    0xcc, 0xf6, 0xff, 0xff, 0x08, 0x00, 0x00, 0x00, 0x10, 0x00, 0x00, 0x00,
    0x01, 0x00, 0x00, 0x00, 0x80, 0xff, 0xff, 0xff, 0xff, 0xff, 0xff, 0xff,
    0x01, 0x00, 0x00, 0x00, 0x00, 0x00, 0x80, 0x3b, 0x1b, 0x00, 0x00, 0x00,
    0x53, 0x74, 0x61, 0x74, 0x65, 0x66, 0x75, 0x6c, 0x50, 0x61, 0x72, 0x74,
    0x69, 0x74, 0x69, 0x6f, 0x6e, 0x65, 0x64, 0x43, 0x61, 0x6c, 0x6c, 0x5f,
    0x31, 0x3a, 0x30, 0x00, 0x02, 0x00, 0x00, 0x00, 0x01, 0x00, 0x00, 0x00,
    0x01, 0x00, 0x00, 0x00, 0x5a, 0xf7, 0xff, 0xff, 0x00, 0x00, 0x00, 0x01,
    0x18, 0x00, 0x00, 0x00, 0x20, 0x00, 0x00, 0x00, 0x3c, 0x00, 0x00, 0x00,
    0x0a, 0x00, 0x00, 0x00, 0x00, 0x00, 0x00, 0x09, 0x70, 0x00, 0x00, 0x00,
    0x02, 0x00, 0x00, 0x00, 0xff, 0xff, 0xff, 0xff, 0x01, 0x00, 0x00, 0x00,
    0x44, 0xf7, 0xff, 0xff, 0x08, 0x00, 0x00, 0x00, 0x10, 0x00, 0x00, 0x00,
    0x01, 0x00, 0x00, 0x00, 0x11, 0x00, 0x00, 0x00, 0x00, 0x00, 0x00, 0x00,
    0x01, 0x00, 0x00, 0x00, 0xc0, 0x85, 0x4a, 0x3d, 0x38, 0x00, 0x00, 0x00,
    0x73, 0x65, 0x71, 0x75, 0x65, 0x6e, 0x74, 0x69, 0x61, 0x6c, 0x5f, 0x31,
    0x2f, 0x64, 0x65, 0x6e, 0x73, 0x65, 0x5f, 0x32, 0x5f, 0x31, 0x2f, 0x4d,
    0x61, 0x74, 0x4d, 0x75, 0x6c, 0x3b, 0x73, 0x65, 0x71, 0x75, 0x65, 0x6e,
    0x74, 0x69, 0x61, 0x6c, 0x5f, 0x31, 0x2f, 0x64, 0x65, 0x6e, 0x73, 0x65,
    0x5f, 0x32, 0x5f, 0x31, 0x2f, 0x41, 0x64, 0x64, 0x00, 0x00, 0x00, 0x00,
    0x02, 0x00, 0x00, 0x00, 0x01, 0x00, 0x00, 0x00, 0x01, 0x00, 0x00, 0x00,
    0xf2, 0xf7, 0xff, 0xff, 0x00, 0x00, 0x00, 0x01, 0x18, 0x00, 0x00, 0x00,
    0x20, 0x00, 0x00, 0x00, 0x3c, 0x00, 0x00, 0x00, 0x09, 0x00, 0x00, 0x00,
    0x00, 0x00, 0x00, 0x09, 0x90, 0x00, 0x00, 0x00, 0x02, 0x00, 0x00, 0x00,
    0xff, 0xff, 0xff, 0xff, 0x10, 0x00, 0x00, 0x00, 0xdc, 0xf7, 0xff, 0xff,
    0x08, 0x00, 0x00, 0x00, 0x10, 0x00, 0x00, 0x00, 0x01, 0x00, 0x00, 0x00,
    0x80, 0xff, 0xff, 0xff, 0xff, 0xff, 0xff, 0xff, 0x01, 0x00, 0x00, 0x00,
    0x07, 0x81, 0xe4, 0x3b, 0x58, 0x00, 0x00, 0x00, 0x73, 0x65, 0x71, 0x75,
    0x65, 0x6e, 0x74, 0x69, 0x61, 0x6c, 0x5f, 0x31, 0x2f, 0x64, 0x65, 0x6e,
    0x73, 0x65, 0x5f, 0x31, 0x5f, 0x32, 0x2f, 0x4d, 0x61, 0x74, 0x4d, 0x75,
    0x6c, 0x3b, 0x73, 0x65, 0x71, 0x75, 0x65, 0x6e, 0x74, 0x69, 0x61, 0x6c,
    0x5f, 0x31, 0x2f, 0x64, 0x65, 0x6e, 0x73, 0x65, 0x5f, 0x31, 0x5f, 0x32,
    0x2f, 0x52, 0x65, 0x6c, 0x75, 0x3b, 0x73, 0x65, 0x71, 0x75, 0x65, 0x6e,
    0x74, 0x69, 0x61, 0x6c, 0x5f, 0x31, 0x2f, 0x64, 0x65, 0x6e, 0x73, 0x65,
    0x5f, 0x31, 0x5f, 0x32, 0x2f, 0x42, 0x69, 0x61, 0x73, 0x41, 0x64, 0x64,
    0x00, 0x00, 0x00, 0x00, 0x02, 0x00, 0x00, 0x00, 0x01, 0x00, 0x00, 0x00,
    0x10, 0x00, 0x00, 0x00, 0xaa, 0xf8, 0xff, 0xff, 0x00, 0x00, 0x00, 0x01,
    0x18, 0x00, 0x00, 0x00, 0x20, 0x00, 0x00, 0x00, 0x3c, 0x00, 0x00, 0x00,
    0x08, 0x00, 0x00, 0x00, 0x00, 0x00, 0x00, 0x09, 0x88, 0x00, 0x00, 0x00,
    0x02, 0x00, 0x00, 0x00, 0xff, 0xff, 0xff, 0xff, 0x20, 0x00, 0x00, 0x00,
    0x94, 0xf8, 0xff, 0xff, 0x08, 0x00, 0x00, 0x00, 0x10, 0x00, 0x00, 0x00,
    0x01, 0x00, 0x00, 0x00, 0x80, 0xff, 0xff, 0xff, 0xff, 0xff, 0xff, 0xff,
    0x01, 0x00, 0x00, 0x00, 0x7d, 0xbe, 0x1c, 0x3c, 0x52, 0x00, 0x00, 0x00,
    0x73, 0x65, 0x71, 0x75, 0x65, 0x6e, 0x74, 0x69, 0x61, 0x6c, 0x5f, 0x31,
    0x2f, 0x64, 0x65, 0x6e, 0x73, 0x65, 0x5f, 0x31, 0x2f, 0x4d, 0x61, 0x74,
    0x4d, 0x75, 0x6c, 0x3b, 0x73, 0x65, 0x71, 0x75, 0x65, 0x6e, 0x74, 0x69,
    0x61, 0x6c, 0x5f, 0x31, 0x2f, 0x64, 0x65, 0x6e, 0x73, 0x65, 0x5f, 0x31,
    0x2f, 0x52, 0x65, 0x6c, 0x75, 0x3b, 0x73, 0x65, 0x71, 0x75, 0x65, 0x6e,
    0x74, 0x69, 0x61, 0x6c, 0x5f, 0x31, 0x2f, 0x64, 0x65, 0x6e, 0x73, 0x65,
    0x5f, 0x31, 0x2f, 0x42, 0x69, 0x61, 0x73, 0x41, 0x64, 0x64, 0x00, 0x00,
    0x02, 0x00, 0x00, 0x00, 0x01, 0x00, 0x00, 0x00, 0x20, 0x00, 0x00, 0x00,
    0xce, 0xf9, 0xff, 0xff, 0x00, 0x00, 0x00, 0x01, 0x14, 0x00, 0x00, 0x00,
    0xa8, 0x01, 0x00, 0x00, 0x07, 0x00, 0x00, 0x00, 0x00, 0x00, 0x00, 0x09,
    0xb4, 0x01, 0x00, 0x00, 0x34, 0xf9, 0xff, 0xff, 0x08, 0x00, 0x00, 0x00,
    0x0c, 0x01, 0x00, 0x00, 0x20, 0x00, 0x00, 0x00, 0x00, 0x00, 0x00, 0x00,
    0x00, 0x00, 0x00, 0x00, 0x00, 0x00, 0x00, 0x00, 0x00, 0x00, 0x00, 0x00,
    0x00, 0x00, 0x00, 0x00, 0x00, 0x00, 0x00, 0x00, 0x00, 0x00, 0x00, 0x00,
    0x00, 0x00, 0x00, 0x00, 0x00, 0x00, 0x00, 0x00, 0x00, 0x00, 0x00, 0x00,
    0x00, 0x00, 0x00, 0x00, 0x00, 0x00, 0x00, 0x00, 0x00, 0x00, 0x00, 0x00,
    0x00, 0x00, 0x00, 0x00, 0x00, 0x00, 0x00, 0x00, 0x00, 0x00, 0x00, 0x00,
    0x00, 0x00, 0x00, 0x00, 0x00, 0x00, 0x00, 0x00, 0x00, 0x00, 0x00, 0x00,
    0x00, 0x00, 0x00, 0x00, 0x00, 0x00, 0x00, 0x00, 0x00, 0x00, 0x00, 0x00,
    0x00, 0x00, 0x00, 0x00, 0x00, 0x00, 0x00, 0x00, 0x00, 0x00, 0x00, 0x00,
    0x00, 0x00, 0x00, 0x00, 0x00, 0x00, 0x00, 0x00, 0x00, 0x00, 0x00, 0x00,
    0x00, 0x00, 0x00, 0x00, 0x00, 0x00, 0x00, 0x00, 0x00, 0x00, 0x00, 0x00,
    0x00, 0x00, 0x00, 0x00, 0x00, 0x00, 0x00, 0x00, 0x00, 0x00, 0x00, 0x00,
    0x00, 0x00, 0x00, 0x00, 0x00, 0x00, 0x00, 0x00, 0x00, 0x00, 0x00, 0x00,
    0x00, 0x00, 0x00, 0x00, 0x00, 0x00, 0x00, 0x00, 0x00, 0x00, 0x00, 0x00,
    0x00, 0x00, 0x00, 0x00, 0x00, 0x00, 0x00, 0x00, 0x00, 0x00, 0x00, 0x00,
    0x00, 0x00, 0x00, 0x00, 0x00, 0x00, 0x00, 0x00, 0x00, 0x00, 0x00, 0x00,
    0x00, 0x00, 0x00, 0x00, 0x00, 0x00, 0x00, 0x00, 0x00, 0x00, 0x00, 0x00,
    0x00, 0x00, 0x00, 0x00, 0x00, 0x00, 0x00, 0x00, 0x00, 0x00, 0x00, 0x00,
    0x00, 0x00, 0x00, 0x00, 0x00, 0x00, 0x00, 0x00, 0x00, 0x00, 0x00, 0x00,
    0x00, 0x00, 0x00, 0x00, 0x00, 0x00, 0x00, 0x00, 0x00, 0x00, 0x00, 0x00,
    0x00, 0x00, 0x00, 0x00, 0x00, 0x00, 0x00, 0x00, 0x00, 0x00, 0x00, 0x00,
    0x00, 0x00, 0x00, 0x00, 0x00, 0x00, 0x00, 0x00, 0x00, 0x00, 0x00, 0x00,
    0x00, 0x00, 0x00, 0x00, 0x20, 0x00, 0x00, 0x00, 0xd0, 0x8c, 0xda, 0x3a,
    0x8f, 0x4b, 0xa7, 0x3a, 0xcc, 0xfb, 0x63, 0x3a, 0x66, 0xf5, 0x4a, 0x34,
    0x19, 0x39, 0x2a, 0x3a, 0xf9, 0x65, 0xc5, 0x3a, 0x1e, 0x45, 0xe6, 0x3a,
    0x0d, 0x88, 0x69, 0x3a, 0x82, 0xdc, 0x8a, 0x3a, 0xba, 0x83, 0xc7, 0x3a,
    0x73, 0x4e, 0xdf, 0x3a, 0x00, 0x6c, 0x3f, 0x3a, 0xd2, 0x96, 0xab, 0x39,
    0x08, 0x69, 0x17, 0x3b, 0x05, 0x12, 0xe0, 0x3a, 0xf9, 0x0c, 0x1b, 0x3b,
    0x0b, 0xf4, 0xa0, 0x3a, 0x39, 0x67, 0xac, 0x3a, 0xc9, 0x6c, 0x0b, 0x3b,
    0x25, 0x80, 0x96, 0x3a, 0xef, 0xd0, 0x93, 0x3a, 0x92, 0x4f, 0x4f, 0x34,
    0xea, 0xf7, 0xb5, 0x39, 0x3a, 0xde, 0xad, 0x3a, 0x12, 0x31, 0xc6, 0x3a,
    0x8d, 0x7c, 0xb6, 0x3a, 0x0f, 0x9c, 0x0c, 0x3b, 0x50, 0x32, 0x6e, 0x3a,
    0x39, 0xb2, 0x80, 0x39, 0x77, 0x93, 0xe7, 0x3a, 0x49, 0x4e, 0x8a, 0x3a,
    0x4c, 0x7d, 0xf4, 0x3a, 0x12, 0x00, 0x00, 0x00, 0x74, 0x66, 0x6c, 0x2e,
    0x70, 0x73, 0x65, 0x75, 0x64, 0x6f, 0x5f, 0x71, 0x63, 0x6f, 0x6e, 0x73,
    0x74, 0x35, 0x00, 0x00, 0x02, 0x00, 0x00, 0x00, 0x20, 0x00, 0x00, 0x00,
    0x4c, 0x00, 0x00, 0x00, 0xa6, 0xfb, 0xff, 0xff, 0x00, 0x00, 0x00, 0x01,
    0x14, 0x00, 0x00, 0x00, 0xa4, 0x01, 0x00, 0x00, 0x06, 0x00, 0x00, 0x00,
    0x00, 0x00, 0x00, 0x02, 0xb0, 0x01, 0x00, 0x00, 0x0c, 0xfb, 0xff, 0xff,
    0x08, 0x00, 0x00, 0x00, 0x08, 0x01, 0x00, 0x00, 0x20, 0x00, 0x00, 0x00,
    0x00, 0x00, 0x00, 0x00, 0x00, 0x00, 0x00, 0x00, 0x00, 0x00, 0x00, 0x00,
    0x00, 0x00, 0x00, 0x00, 0x00, 0x00, 0x00, 0x00, 0x00, 0x00, 0x00, 0x00,
    0x00, 0x00, 0x00, 0x00, 0x00, 0x00, 0x00, 0x00, 0x00, 0x00, 0x00, 0x00,
    0x00, 0x00, 0x00, 0x00, 0x00, 0x00, 0x00, 0x00, 0x00, 0x00, 0x00, 0x00,
    0x00, 0x00, 0x00, 0x00, 0x00, 0x00, 0x00, 0x00, 0x00, 0x00, 0x00, 0x00,
    0x00, 0x00, 0x00, 0x00, 0x00, 0x00, 0x00, 0x00, 0x00, 0x00, 0x00, 0x00,
    0x00, 0x00, 0x00, 0x00, 0x00, 0x00, 0x00, 0x00, 0x00, 0x00, 0x00, 0x00,
    0x00, 0x00, 0x00, 0x00, 0x00, 0x00, 0x00, 0x00, 0x00, 0x00, 0x00, 0x00,
    0x00, 0x00, 0x00, 0x00, 0x00, 0x00, 0x00, 0x00, 0x00, 0x00, 0x00, 0x00,
    0x00, 0x00, 0x00, 0x00, 0x00, 0x00, 0x00, 0x00, 0x00, 0x00, 0x00, 0x00,
    0x00, 0x00, 0x00, 0x00, 0x00, 0x00, 0x00, 0x00, 0x00, 0x00, 0x00, 0x00,
    0x00, 0x00, 0x00, 0x00, 0x00, 0x00, 0x00, 0x00, 0x00, 0x00, 0x00, 0x00,
    0x00, 0x00, 0x00, 0x00, 0x00, 0x00, 0x00, 0x00, 0x00, 0x00, 0x00, 0x00,
    0x00, 0x00, 0x00, 0x00, 0x00, 0x00, 0x00, 0x00, 0x00, 0x00, 0x00, 0x00,
    0x00, 0x00, 0x00, 0x00, 0x00, 0x00, 0x00, 0x00, 0x00, 0x00, 0x00, 0x00,
    0x00, 0x00, 0x00, 0x00, 0x00, 0x00, 0x00, 0x00, 0x00, 0x00, 0x00, 0x00,
    0x00, 0x00, 0x00, 0x00, 0x00, 0x00, 0x00, 0x00, 0x00, 0x00, 0x00, 0x00,
    0x00, 0x00, 0x00, 0x00, 0x00, 0x00, 0x00, 0x00, 0x00, 0x00, 0x00, 0x00,
    0x00, 0x00, 0x00, 0x00, 0x00, 0x00, 0x00, 0x00, 0x00, 0x00, 0x00, 0x00,
    0x00, 0x00, 0x00, 0x00, 0x00, 0x00, 0x00, 0x00, 0x00, 0x00, 0x00, 0x00,
    0x00, 0x00, 0x00, 0x00, 0x00, 0x00, 0x00, 0x00, 0x00, 0x00, 0x00, 0x00,
    0x00, 0x00, 0x00, 0x00, 0x20, 0x00, 0x00, 0x00, 0xe2, 0x11, 0x8e, 0x38,
    0xa7, 0x80, 0x59, 0x38, 0xc2, 0x33, 0x14, 0x38, 0x3d, 0xef, 0x03, 0x32,
    0x24, 0x4f, 0xdd, 0x37, 0xee, 0x51, 0x80, 0x38, 0x40, 0xb0, 0x95, 0x38,
    0x01, 0xcf, 0x17, 0x38, 0x11, 0x89, 0x34, 0x38, 0x1a, 0xb2, 0x81, 0x38,
    0x6a, 0x29, 0x91, 0x38, 0xb9, 0xde, 0xf8, 0x37, 0xd1, 0x15, 0x5f, 0x37,
    0xb6, 0xd9, 0xc4, 0x38, 0x8c, 0xa8, 0x91, 0x38, 0x57, 0x95, 0xc9, 0x38,
    0xe7, 0x41, 0x51, 0x38, 0xc4, 0x24, 0x60, 0x38, 0xa5, 0x44, 0xb5, 0x38,
    0xee, 0xaa, 0x43, 0x38, 0x7b, 0x2d, 0x40, 0x38, 0x83, 0xc3, 0x06, 0x32,
    0x57, 0x94, 0x6c, 0x37, 0x50, 0x0c, 0x62, 0x38, 0xf5, 0xd5, 0x80, 0x38,
    0xc8, 0x40, 0x6d, 0x38, 0xef, 0xce, 0xb6, 0x38, 0x57, 0xd7, 0x1a, 0x38,
    0xce, 0x51, 0x27, 0x37, 0x98, 0x89, 0x96, 0x38, 0x29, 0xd0, 0x33, 0x38,
    0x92, 0xee, 0x9e, 0x38, 0x12, 0x00, 0x00, 0x00, 0x74, 0x66, 0x6c, 0x2e,
    0x70, 0x73, 0x65, 0x75, 0x64, 0x6f, 0x5f, 0x71, 0x63, 0x6f, 0x6e, 0x73,
    0x74, 0x34, 0x00, 0x00, 0x01, 0x00, 0x00, 0x00, 0x20, 0x00, 0x00, 0x00,
    0x76, 0xfd, 0xff, 0xff, 0x00, 0x00, 0x00, 0x01, 0x14, 0x00, 0x00, 0x00,
    0xe8, 0x00, 0x00, 0x00, 0x05, 0x00, 0x00, 0x00, 0x00, 0x00, 0x00, 0x09,
    0xf4, 0x00, 0x00, 0x00, 0xdc, 0xfc, 0xff, 0xff, 0x08, 0x00, 0x00, 0x00,
    0x8c, 0x00, 0x00, 0x00, 0x10, 0x00, 0x00, 0x00, 0x00, 0x00, 0x00, 0x00,
    0x00, 0x00, 0x00, 0x00, 0x00, 0x00, 0x00, 0x00, 0x00, 0x00, 0x00, 0x00,
    0x00, 0x00, 0x00, 0x00, 0x00, 0x00, 0x00, 0x00, 0x00, 0x00, 0x00, 0x00,
    0x00, 0x00, 0x00, 0x00, 0x00, 0x00, 0x00, 0x00, 0x00, 0x00, 0x00, 0x00,
    0x00, 0x00, 0x00, 0x00, 0x00, 0x00, 0x00, 0x00, 0x00, 0x00, 0x00, 0x00,
    0x00, 0x00, 0x00, 0x00, 0x00, 0x00, 0x00, 0x00, 0x00, 0x00, 0x00, 0x00,
    0x00, 0x00, 0x00, 0x00, 0x00, 0x00, 0x00, 0x00, 0x00, 0x00, 0x00, 0x00,
    0x00, 0x00, 0x00, 0x00, 0x00, 0x00, 0x00, 0x00, 0x00, 0x00, 0x00, 0x00,
    0x00, 0x00, 0x00, 0x00, 0x00, 0x00, 0x00, 0x00, 0x00, 0x00, 0x00, 0x00,
    0x00, 0x00, 0x00, 0x00, 0x00, 0x00, 0x00, 0x00, 0x00, 0x00, 0x00, 0x00,
    0x00, 0x00, 0x00, 0x00, 0x00, 0x00, 0x00, 0x00, 0x00, 0x00, 0x00, 0x00,
    0x00, 0x00, 0x00, 0x00, 0x00, 0x00, 0x00, 0x00, 0x10, 0x00, 0x00, 0x00,
    0xfa, 0x1d, 0x58, 0x3a, 0x86, 0x40, 0x5e, 0x3a, 0xb1, 0xd2, 0xf8, 0x3a,
    0xd9, 0xb2, 0xa9, 0x3a, 0xff, 0x60, 0xca, 0x3a, 0x60, 0x20, 0x5d, 0x3a,
    0xdd, 0x12, 0x9b, 0x3a, 0x38, 0x3b, 0xd1, 0x3a, 0x63, 0xf7, 0x7f, 0x3a,
    0x8d, 0x61, 0xb4, 0x3a, 0x63, 0xba, 0xa9, 0x3a, 0x12, 0x02, 0xcd, 0x3a,
    0x39, 0x05, 0x5e, 0x3a, 0x06, 0xd5, 0xa8, 0x3a, 0x4c, 0xfd, 0xa9, 0x3a,
    0x9e, 0xe3, 0x93, 0x3a, 0x12, 0x00, 0x00, 0x00, 0x74, 0x66, 0x6c, 0x2e,
    0x70, 0x73, 0x65, 0x75, 0x64, 0x6f, 0x5f, 0x71, 0x63, 0x6f, 0x6e, 0x73,
    0x74, 0x33, 0x00, 0x00, 0x02, 0x00, 0x00, 0x00, 0x10, 0x00, 0x00, 0x00,
    0x20, 0x00, 0x00, 0x00, 0x8e, 0xfe, 0xff, 0xff, 0x00, 0x00, 0x00, 0x01,
    0x14, 0x00, 0x00, 0x00, 0xe4, 0x00, 0x00, 0x00, 0x04, 0x00, 0x00, 0x00,
    0x00, 0x00, 0x00, 0x02, 0xf0, 0x00, 0x00, 0x00, 0xf4, 0xfd, 0xff, 0xff,
    0x08, 0x00, 0x00, 0x00, 0x88, 0x00, 0x00, 0x00, 0x10, 0x00, 0x00, 0x00,
    0x00, 0x00, 0x00, 0x00, 0x00, 0x00, 0x00, 0x00, 0x00, 0x00, 0x00, 0x00,
    0x00, 0x00, 0x00, 0x00, 0x00, 0x00, 0x00, 0x00, 0x00, 0x00, 0x00, 0x00,
    0x00, 0x00, 0x00, 0x00, 0x00, 0x00, 0x00, 0x00, 0x00, 0x00, 0x00, 0x00,
    0x00, 0x00, 0x00, 0x00, 0x00, 0x00, 0x00, 0x00, 0x00, 0x00, 0x00, 0x00,
    0x00, 0x00, 0x00, 0x00, 0x00, 0x00, 0x00, 0x00, 0x00, 0x00, 0x00, 0x00,
    0x00, 0x00, 0x00, 0x00, 0x00, 0x00, 0x00, 0x00, 0x00, 0x00, 0x00, 0x00,
    0x00, 0x00, 0x00, 0x00, 0x00, 0x00, 0x00, 0x00, 0x00, 0x00, 0x00, 0x00,
    0x00, 0x00, 0x00, 0x00, 0x00, 0x00, 0x00, 0x00, 0x00, 0x00, 0x00, 0x00,
    0x00, 0x00, 0x00, 0x00, 0x00, 0x00, 0x00, 0x00, 0x00, 0x00, 0x00, 0x00,
    0x00, 0x00, 0x00, 0x00, 0x00, 0x00, 0x00, 0x00, 0x00, 0x00, 0x00, 0x00,
    0x00, 0x00, 0x00, 0x00, 0x00, 0x00, 0x00, 0x00, 0x10, 0x00, 0x00, 0x00,
    0x14, 0x53, 0x04, 0x37, 0xb2, 0x14, 0x08, 0x37, 0x8a, 0x59, 0x98, 0x37,
    0x84, 0xce, 0x4f, 0x37, 0x64, 0xd3, 0x77, 0x37, 0x45, 0x64, 0x07, 0x37,
    0xc5, 0xe5, 0x3d, 0x37, 0xc6, 0x1b, 0x80, 0x37, 0x37, 0xb9, 0x1c, 0x37,
    0x55, 0xe3, 0x5c, 0x37, 0xbf, 0xd7, 0x4f, 0x37, 0x9d, 0x0b, 0x7b, 0x37,
    0x63, 0xf0, 0x07, 0x37, 0xe0, 0xbe, 0x4e, 0x37, 0xaf, 0x29, 0x50, 0x37,
    0x7f, 0x19, 0x35, 0x37, 0x12, 0x00, 0x00, 0x00, 0x74, 0x66, 0x6c, 0x2e,
    0x70, 0x73, 0x65, 0x75, 0x64, 0x6f, 0x5f, 0x71, 0x63, 0x6f, 0x6e, 0x73,
    0x74, 0x32, 0x00, 0x00, 0x01, 0x00, 0x00, 0x00, 0x10, 0x00, 0x00, 0x00,
    0x9e, 0xff, 0xff, 0xff, 0x00, 0x00, 0x00, 0x01, 0x14, 0x00, 0x00, 0x00,
    0x30, 0x00, 0x00, 0x00, 0x03, 0x00, 0x00, 0x00, 0x00, 0x00, 0x00, 0x09,
    0x3c, 0x00, 0x00, 0x00, 0x04, 0xff, 0xff, 0xff, 0x08, 0x00, 0x00, 0x00,
    0x10, 0x00, 0x00, 0x00, 0x01, 0x00, 0x00, 0x00, 0x00, 0x00, 0x00, 0x00,
    0x00, 0x00, 0x00, 0x00, 0x01, 0x00, 0x00, 0x00, 0xd4, 0x18, 0xaf, 0x3b,
    0x12, 0x00, 0x00, 0x00, 0x74, 0x66, 0x6c, 0x2e, 0x70, 0x73, 0x65, 0x75,
    0x64, 0x6f, 0x5f, 0x71, 0x63, 0x6f, 0x6e, 0x73, 0x74, 0x31, 0x00, 0x00,
    0x02, 0x00, 0x00, 0x00, 0x01, 0x00, 0x00, 0x00, 0x10, 0x00, 0x00, 0x00,
    0x00, 0x00, 0x16, 0x00, 0x1c, 0x00, 0x18, 0x00, 0x17, 0x00, 0x10, 0x00,
    0x0c, 0x00, 0x08, 0x00, 0x00, 0x00, 0x00, 0x00, 0x00, 0x00, 0x07, 0x00,
    0x16, 0x00, 0x00, 0x00, 0x00, 0x00, 0x00, 0x01, 0x14, 0x00, 0x00, 0x00,
    0x30, 0x00, 0x00, 0x00, 0x02, 0x00, 0x00, 0x00, 0x00, 0x00, 0x00, 0x02,
    0x3c, 0x00, 0x00, 0x00, 0x7c, 0xff, 0xff, 0xff, 0x08, 0x00, 0x00, 0x00,
    0x10, 0x00, 0x00, 0x00, 0x01, 0x00, 0x00, 0x00, 0x00, 0x00, 0x00, 0x00,
    0x00, 0x00, 0x00, 0x00, 0x01, 0x00, 0x00, 0x00, 0x5d, 0x4a, 0x1c, 0x38,
    0x11, 0x00, 0x00, 0x00, 0x74, 0x66, 0x6c, 0x2e, 0x70, 0x73, 0x65, 0x75,
    0x64, 0x6f, 0x5f, 0x71, 0x63, 0x6f, 0x6e, 0x73, 0x74, 0x00, 0x00, 0x00,
    0x01, 0x00, 0x00, 0x00, 0x01, 0x00, 0x00, 0x00, 0x00, 0x00, 0x16, 0x00,
    0x20, 0x00, 0x1c, 0x00, 0x1b, 0x00, 0x14, 0x00, 0x10, 0x00, 0x0c, 0x00,
    0x00, 0x00, 0x00, 0x00, 0x08, 0x00, 0x07, 0x00, 0x16, 0x00, 0x00, 0x00,
    0x00, 0x00, 0x00, 0x01, 0x18, 0x00, 0x00, 0x00, 0x2c, 0x00, 0x00, 0x00,
    0x4c, 0x00, 0x00, 0x00, 0x01, 0x00, 0x00, 0x00, 0x00, 0x00, 0x00, 0x09,
    0x68, 0x00, 0x00, 0x00, 0x02, 0x00, 0x00, 0x00, 0xff, 0xff, 0xff, 0xff,
    0x4c, 0x00, 0x00, 0x00, 0x0c, 0x00, 0x0c, 0x00, 0x00, 0x00, 0x00, 0x00,
    0x08, 0x00, 0x04, 0x00, 0x0c, 0x00, 0x00, 0x00, 0x08, 0x00, 0x00, 0x00,
    0x14, 0x00, 0x00, 0x00, 0x01, 0x00, 0x00, 0x00, 0xef, 0xff, 0xff, 0xff,
    0xff, 0xff, 0xff, 0xff, 0x00, 0x00, 0x00, 0x00, 0x01, 0x00, 0x00, 0x00,
    0x18, 0x6a, 0x26, 0x3d, 0x21, 0x00, 0x00, 0x00, 0x73, 0x65, 0x72, 0x76,
    0x69, 0x6e, 0x67, 0x5f, 0x64, 0x65, 0x66, 0x61, 0x75, 0x6c, 0x74, 0x5f,
    0x6b, 0x65, 0x72, 0x61, 0x73, 0x5f, 0x74, 0x65, 0x6e, 0x73, 0x6f, 0x72,
    0x5f, 0x31, 0x35, 0x3a, 0x30, 0x00, 0x00, 0x00, 0x02, 0x00, 0x00, 0x00,
    0x01, 0x00, 0x00, 0x00, 0x4c, 0x00, 0x00, 0x00, 0x02, 0x00, 0x00, 0x00,
    0x24, 0x00, 0x00, 0x00, 0x04, 0x00, 0x00, 0x00, 0xf0, 0xff, 0xff, 0xff,
    0x0e, 0x00, 0x00, 0x00, 0x02, 0x00, 0x00, 0x00, 0x00, 0x00, 0x00, 0x0e,
    0x0c, 0x00, 0x10, 0x00, 0x0f, 0x00, 0x00, 0x00, 0x08, 0x00, 0x04, 0x00,
    0x0c, 0x00, 0x00, 0x00, 0x09, 0x00, 0x00, 0x00, 0x04, 0x00, 0x00, 0x00,
    0x00, 0x00, 0x00, 0x09
};
const unsigned int model_tflite_len = 6688;
#endif
